#include <Arduino.h>



const unsigned char g_model[] = {
  0x1c, 0x00, 0x00, 0x00, 0x54, 0x46, 0x4c, 0x33, 0x14, 0x00, 0x20, 0x00, 0x1c, 0x00, 0x18, 0x00, 0x14, 0x00, 0x10, 0x00, 0x0c, 0x00, 0x00, 0x00, 0x08, 0x00, 0x04, 0x00, 0x14, 0x00, 0x00, 0x00, 0x1c, 0x00, 0x00, 0x00, 0x88, 0x00, 0x00, 0x00, 0xe0, 0x00, 0x00, 0x00, 0x8c, 0x11, 0x00, 0x00, 0x9c, 0x11, 0x00, 0x00, 0x30, 0x17, 0x00, 0x00, 0x03, 0x00, 0x00, 0x00, 0x01, 0x00, 0x00, 0x00, 0x04, 0x00, 0x00, 0x00, 0x26, 0xee, 0xff, 0xff, 0x0c, 0x00, 0x00, 0x00, 0x1c, 0x00, 0x00, 0x00, 0x3c, 0x00, 0x00, 0x00, 0x0f, 0x00, 0x00, 0x00, 0x73, 0x65, 0x72, 0x76, 0x69, 0x6e, 0x67, 0x5f, 0x64, 0x65, 0x66, 0x61, 0x75, 0x6c, 0x74, 0x00, 0x01, 0x00, 0x00, 0x00, 0x04, 0x00, 0x00, 0x00, 0x94, 0xff, 0xff, 0xff, 0x0a, 0x00, 0x00, 0x00, 0x04, 0x00, 0x00, 0x00, 0x08, 0x00, 0x00, 0x00, 0x6f, 0x75, 0x74, 0x70, 0x75, 0x74, 0x5f, 0x30, 0x00, 0x00, 0x00, 0x00, 0x01, 0x00, 0x00, 0x00, 0x04, 0x00, 0x00, 0x00, 0x36, 0xef, 0xff, 0xff, 0x04, 0x00, 0x00, 0x00, 0x0b, 0x00, 0x00, 0x00, 0x69, 0x6e, 0x70, 0x75, 0x74, 0x5f, 0x6c, 0x61, 0x79, 0x65, 0x72, 0x00, 0x02, 0x00, 0x00, 0x00, 0x34, 0x00, 0x00, 0x00, 0x04, 0x00, 0x00, 0x00, 0xdc, 0xff, 0xff, 0xff, 0x0d, 0x00, 0x00, 0x00, 0x04, 0x00, 0x00, 0x00, 0x13, 0x00, 0x00, 0x00, 0x43, 0x4f, 0x4e, 0x56, 0x45, 0x52, 0x53, 0x49, 0x4f, 0x4e, 0x5f, 0x4d, 0x45, 0x54, 0x41, 0x44, 0x41, 0x54, 0x41, 0x00, 0x08, 0x00, 0x0c, 0x00, 0x08, 0x00, 0x04, 0x00, 0x08, 0x00, 0x00, 0x00, 0x0c, 0x00, 0x00, 0x00, 0x04, 0x00, 0x00, 0x00, 0x13, 0x00, 0x00, 0x00, 0x6d, 0x69, 0x6e, 0x5f, 0x72, 0x75, 0x6e, 0x74, 0x69, 0x6d, 0x65, 0x5f, 0x76, 0x65, 0x72, 0x73, 0x69, 0x6f, 0x6e, 0x00, 0x0e, 0x00, 0x00, 0x00, 0xa8, 0x10, 0x00, 0x00, 0xa0, 0x10, 0x00, 0x00, 0x50, 0x10, 0x00, 0x00, 0x38, 0x08, 0x00, 0x00, 0x24, 0x08, 0x00, 0x00, 0xd4, 0x07, 0x00, 0x00, 0x44, 0x07, 0x00, 0x00, 0xb4, 0x00, 0x00, 0x00, 0xac, 0x00, 0x00, 0x00, 0xa4, 0x00, 0x00, 0x00, 0x9c, 0x00, 0x00, 0x00, 0x94, 0x00, 0x00, 0x00, 0x74, 0x00, 0x00, 0x00, 0x04, 0x00, 0x00, 0x00, 0xe6, 0xef, 0xff, 0xff, 0x04, 0x00, 0x00, 0x00, 0x60, 0x00, 0x00, 0x00, 0x0c, 0x00, 0x00, 0x00, 0x08, 0x00, 0x0e, 0x00, 0x08, 0x00, 0x04, 0x00, 0x08, 0x00, 0x00, 0x00, 0x10, 0x00, 0x00, 0x00, 0x28, 0x00, 0x00, 0x00, 0x00, 0x00, 0x06, 0x00, 0x08, 0x00, 0x04, 0x00, 0x06, 0x00, 0x00, 0x00, 0x04, 0x00, 0x00, 0x00, 0x01, 0x00, 0x00, 0x00, 0xea, 0x03, 0x00, 0x00, 0x0c, 0x00, 0x18, 0x00, 0x14, 0x00, 0x10, 0x00, 0x0c, 0x00, 0x04, 0x00, 0x0c, 0x00, 0x00, 0x00, 0x32, 0x6a, 0xe7, 0x4d, 0x60, 0x8e, 0xdc, 0x63, 0x02, 0x00, 0x00, 0x00, 0x02, 0x00, 0x00, 0x00, 0x04, 0x00, 0x00, 0x00, 0x06, 0x00, 0x00, 0x00, 0x32, 0x2e, 0x31, 0x39, 0x2e, 0x30, 0x00, 0x00, 0x52, 0xf0, 0xff, 0xff, 0x04, 0x00, 0x00, 0x00, 0x10, 0x00, 0x00, 0x00, 0x31, 0x2e, 0x31, 0x34, 0x2e, 0x30, 0x00, 0x00, 0x00, 0x00, 0x00, 0x00, 0x00, 0x00, 0x00, 0x00, 0xa0, 0xea, 0xff, 0xff, 0xa4, 0xea, 0xff, 0xff, 0xa8, 0xea, 0xff, 0xff, 0xac, 0xea, 0xff, 0xff, 0x7e, 0xf0, 0xff, 0xff, 0x04, 0x00, 0x00, 0x00, 0x80, 0x06, 0x00, 0x00, 0x1e, 0x86, 0x96, 0xbe, 0xf1, 0x96, 0x7a, 0xbe, 0x8d, 0x98, 0x8a, 0x3e, 0xf5, 0xb5, 0x58, 0xbe, 0x94, 0xd2, 0x40, 0x3c, 0x94, 0x76, 0x87, 0xbe, 0x60, 0xed, 0x5c, 0x3e, 0xc4, 0x46, 0xb9, 0xbe, 0xcd, 0x46, 0x3d, 0x3e, 0x07, 0x08, 0x19, 0xbf, 0xcb, 0x9c, 0x93, 0xbe, 0x77, 0xe1, 0xa7, 0xbe, 0x5f, 0x79, 0x33, 0x3e, 0xe2, 0x01, 0xc5, 0xbd, 0xb2, 0x98, 0x61, 0xbe, 0xaa, 0xc1, 0x8f, 0x3e, 0x2a, 0x26, 0x2c, 0x3d, 0x5f, 0x47, 0x7a, 0xbe, 0xd3, 0xdf, 0xe4, 0xbd, 0xa5, 0x73, 0xef, 0xbc, 0x50, 0x78, 0xc4, 0xbd, 0x72, 0xea, 0x20, 0xbe, 0xac, 0xb8, 0xb3, 0xbd, 0xca, 0x5e, 0x16, 0x3d, 0xfd, 0xef, 0xe9, 0x3e, 0x72, 0xe2, 0x9b, 0xba, 0x34, 0x09, 0x95, 0xbe, 0xaa, 0xa9, 0xaf, 0x3e, 0xdd, 0xc9, 0x73, 0x3e, 0xae, 0xb0, 0x95, 0x3c, 0xd5, 0xe7, 0x97, 0x3e, 0xdf, 0x1a, 0x48, 0xbe, 0x3b, 0x52, 0xad, 0x3e, 0xdb, 0x3a, 0x01, 0x3f, 0x06, 0x92, 0x5c, 0x3e, 0x43, 0x08, 0x15, 0xbb, 0x56, 0x19, 0xa9, 0x3e, 0x5d, 0x5a, 0x2a, 0xbe, 0x23, 0x45, 0x24, 0x3d, 0x24, 0x80, 0xe6, 0xbd, 0x44, 0x5b, 0x43, 0xbe, 0x11, 0xce, 0x9c, 0xbe, 0x49, 0x65, 0x80, 0xbe, 0x02, 0x1d, 0x46, 0xbd, 0x9a, 0x05, 0x06, 0xbe, 0xd0, 0x75, 0xff, 0xbe, 0x41, 0x25, 0x33, 0xbf, 0x54, 0x29, 0xb9, 0xbe, 0xa2, 0xdf, 0xde, 0xbc, 0xf7, 0xae, 0x69, 0x3e, 0xa5, 0x6f, 0x19, 0x3c, 0x90, 0xa7, 0x6d, 0x3e, 0x79, 0x27, 0x6b, 0xbc, 0x4c, 0xca, 0x06, 0x3e, 0xec, 0x6c, 0x21, 0x3e, 0x2a, 0x22, 0x85, 0xbe, 0x09, 0x12, 0xbb, 0x3e, 0xda, 0x41, 0x8c, 0xbd, 0x98, 0x90, 0x96, 0x3e, 0x15, 0x9a, 0x45, 0x3d, 0xbe, 0xf6, 0x19, 0xbe, 0x40, 0xbe, 0x14, 0xbf, 0x9e, 0x66, 0x3e, 0xbc, 0x21, 0x43, 0xfe, 0xbe, 0x85, 0x55, 0xf3, 0x3e, 0x86, 0x90, 0xa4, 0x3e, 0x3d, 0x26, 0x56, 0xbe, 0xa0, 0xa2, 0x46, 0x3e, 0xa9, 0x83, 0x24, 0xbe, 0x5a, 0x8b, 0x84, 0xbe, 0xab, 0x7f, 0x8e, 0x3e, 0x2a, 0xde, 0x43, 0x3e, 0xbc, 0xba, 0x67, 0x3d, 0x57, 0x5b, 0x70, 0xbe, 0xf2, 0xf0, 0xbc, 0xbc, 0x30, 0xe8, 0x0c, 0x3d, 0xa0, 0xc6, 0x1d, 0xbe, 0xa4, 0x39, 0x8f, 0x3e, 0x70, 0x46, 0x93, 0x3e, 0xe7, 0x56, 0x33, 0x3e, 0x65, 0x33, 0x5e, 0x3e, 0x81, 0x80, 0xdd, 0xbd, 0x5e, 0x0c, 0xe4, 0xbd, 0xbd, 0xed, 0x5a, 0x3d, 0x30, 0x66, 0x42, 0x3e, 0x10, 0x8e, 0x9e, 0x3e, 0xc1, 0x39, 0xf9, 0x3d, 0xbf, 0xfe, 0x86, 0xbe, 0x08, 0x38, 0x9d, 0x3e, 0x6d, 0x80, 0x5e, 0x3e, 0xbc, 0x77, 0x55, 0xbe, 0xbb, 0xa4, 0xf1, 0xbd, 0x53, 0x3f, 0x61, 0xbe, 0x79, 0x54, 0x60, 0xbe, 0x83, 0x80, 0xc3, 0x3d, 0x15, 0x51, 0x22, 0x3d, 0x6e, 0xfd, 0x9e, 0x3e, 0x0e, 0x43, 0x76, 0x3e, 0x37, 0xbb, 0xfe, 0x3d, 0xbe, 0x53, 0xb6, 0xbe, 0xe7, 0x8b, 0x8b, 0x3d, 0x3b, 0x3a, 0x90, 0xbe, 0xc3, 0xa0, 0xc6, 0x3d, 0x79, 0x48, 0x19, 0xbf, 0x36, 0x35, 0x79, 0xbe, 0xe3, 0x46, 0x84, 0x3e, 0x40, 0xde, 0x47, 0xbe, 0x60, 0xb3, 0xa4, 0x3d, 0xc4, 0x36, 0xcf, 0x3e, 0x25, 0x2e, 0x5e, 0xbe, 0xdf, 0xc4, 0x8f, 0x3e, 0x04, 0x6d, 0x51, 0xbe, 0x5d, 0xa3, 0xe8, 0x3e, 0x70, 0x1a, 0x09, 0x3e, 0xaf, 0x43, 0xb0, 0x3e, 0xa3, 0x67, 0x86, 0xbd, 0xb9, 0x80, 0x5f, 0x3e, 0x40, 0x0a, 0x6d, 0x3e, 0xa9, 0x0e, 0x51, 0xbe, 0xc1, 0x2a, 0x26, 0x3e, 0x54, 0x83, 0xdc, 0xbd, 0xc9, 0x57, 0x9c, 0x3e, 0xcc, 0x6f, 0x51, 0x3e, 0x7a, 0x1c, 0x22, 0xbd, 0x1d, 0x0d, 0x04, 0xbe, 0xf7, 0xc4, 0xa4, 0x3e, 0xcf, 0x31, 0xa1, 0xbe, 0xa9, 0xc0, 0x90, 0xbe, 0x7a, 0x37, 0x95, 0xbe, 0xcd, 0x13, 0x7c, 0xbe, 0x2f, 0xcf, 0xdf, 0x3b, 0xf0, 0x14, 0x67, 0xbe, 0x36, 0x00, 0x29, 0x3e, 0xc3, 0x92, 0x04, 0x3f, 0x19, 0x4f, 0x89, 0x3e, 0x06, 0x23, 0xda, 0x3e, 0xdd, 0xf7, 0x23, 0x3e, 0x5f, 0x24, 0x98, 0x3e, 0x24, 0xd3, 0x4b, 0xbd, 0xf6, 0xff, 0x54, 0xbe, 0x54, 0xa8, 0x35, 0x3d, 0x93, 0x13, 0x9a, 0xbc, 0x18, 0xe8, 0xdb, 0xbe, 0x2d, 0xfa, 0xaf, 0x3d, 0x4f, 0xe8, 0xba, 0x3e, 0x51, 0x68, 0xa3, 0x3d, 0x7f, 0x4c, 0x9d, 0x3c, 0xb9, 0x4b, 0x82, 0x3e, 0xae, 0x6f, 0x8b, 0xbd, 0xbc, 0x2b, 0xb4, 0xbe, 0x48, 0xc8, 0xe5, 0xbd, 0x07, 0x6c, 0x90, 0xbe, 0x09, 0xc7, 0xb1, 0x3d, 0x79, 0x70, 0x13, 0x3e, 0x6e, 0x6c, 0x2e, 0x3e, 0x61, 0x59, 0x0b, 0x3e, 0xf1, 0xd7, 0x5e, 0xbe, 0xa5, 0x13, 0xe1, 0xbc, 0x98, 0xc7, 0x9f, 0x3e, 0x4e, 0x84, 0x9d, 0x3d, 0x5f, 0x3a, 0x37, 0xbe, 0x2e, 0x5b, 0x18, 0x3d, 0x1e, 0xdf, 0x4b, 0xbe, 0x8c, 0xb9, 0x10, 0xbe, 0x0f, 0x86, 0x8a, 0x3e, 0xbc, 0xc3, 0xa3, 0x3e, 0x21, 0x2b, 0x85, 0x3e, 0x73, 0xfd, 0xf1, 0xbe, 0x72, 0x34, 0xad, 0xbe, 0x68, 0x23, 0x0d, 0x3e, 0xe3, 0x50, 0x9b, 0xbe, 0xab, 0xf0, 0xd6, 0xbd, 0xae, 0x9f, 0x85, 0x3e, 0xbf, 0x6e, 0x3f, 0xbe, 0xf5, 0x7e, 0xe1, 0xbc, 0x0d, 0xed, 0x88, 0xbe, 0x66, 0xdb, 0xb1, 0x3e, 0xa8, 0x1c, 0x52, 0xbb, 0xd0, 0x12, 0xa3, 0xbe, 0xd0, 0x11, 0xbf, 0x3d, 0x07, 0x5d, 0xaf, 0xbe, 0x80, 0x2f, 0x69, 0xbe, 0xe3, 0xfb, 0x8b, 0xbd, 0x30, 0x71, 0xab, 0x3e, 0xd8, 0x36, 0xbc, 0xbd, 0x22, 0x79, 0x85, 0xbd, 0xba, 0xac, 0x82, 0x3d, 0x31, 0xb2, 0x12, 0x3e, 0x4d, 0xd3, 0xfb, 0xbd, 0x9c, 0x66, 0x4f, 0x3e, 0xcb, 0x75, 0xcd, 0x3e, 0x70, 0x04, 0x91, 0xbe, 0x32, 0x0f, 0xb3, 0xbe, 0x9f, 0x3a, 0xd6, 0xbc, 0x5a, 0x3b, 0x9b, 0x3e, 0xa3, 0xdd, 0x39, 0x3e, 0xe9, 0x06, 0x28, 0x3e, 0xd8, 0x86, 0xe4, 0xbc, 0x6a, 0x4b, 0x5b, 0x3e, 0x74, 0x37, 0xb5, 0x3e, 0xf1, 0xbb, 0x8f, 0x3e, 0xcf, 0xd4, 0xbe, 0xbd, 0x7c, 0x32, 0x4d, 0xbe, 0xca, 0x99, 0xa8, 0xbd, 0x09, 0x5c, 0xb0, 0xbe, 0x23, 0x04, 0x7b, 0x3d, 0x4f, 0x76, 0x27, 0xbe, 0x3e, 0x3e, 0x9d, 0xbd, 0x01, 0xd9, 0x7c, 0xbe, 0xeb, 0x86, 0xeb, 0x3d, 0xa8, 0xf2, 0x53, 0x3e, 0xfd, 0x2d, 0x8b, 0xbe, 0xb1, 0xd1, 0xd6, 0xbe, 0xa6, 0x42, 0x61, 0x3e, 0x2e, 0xce, 0x96, 0x3e, 0xcd, 0x55, 0xa0, 0x3b, 0x49, 0xf2, 0x14, 0x3e, 0xa2, 0x2d, 0x93, 0xbc, 0x7e, 0x6a, 0x97, 0xbe, 0xc2, 0xda, 0x51, 0xbd, 0xf4, 0xdc, 0x88, 0x3c, 0xad, 0x38, 0x3b, 0xbd, 0xa5, 0xc4, 0x34, 0x3e, 0xca, 0x7d, 0xa1, 0xbe, 0x77, 0x76, 0xdb, 0x3e, 0x90, 0x32, 0x9a, 0xbe, 0x0e, 0x24, 0x15, 0xbe, 0x03, 0x29, 0xe3, 0xbc, 0xfb, 0xea, 0x08, 0xbe, 0xc8, 0x28, 0x2e, 0xbd, 0xec, 0xc9, 0x01, 0x3f, 0xa6, 0x23, 0xa0, 0x3d, 0xe6, 0x67, 0x06, 0xbd, 0x9e, 0x20, 0x06, 0x3e, 0xb1, 0x19, 0x81, 0x3e, 0x63, 0xca, 0x09, 0xbe, 0x1f, 0xdd, 0x98, 0x3e, 0x23, 0x50, 0x2d, 0x3d, 0xbf, 0xae, 0xae, 0xbe, 0x14, 0x59, 0x2d, 0x3e, 0xac, 0x01, 0x98, 0xbe, 0x86, 0x29, 0x82, 0x3c, 0xa5, 0x21, 0x7e, 0xbe, 0x6a, 0x6d, 0xb6, 0x3d, 0x54, 0x39, 0x05, 0xbc, 0x35, 0x87, 0xe5, 0xbd, 0x78, 0x2b, 0x21, 0x3d, 0xdc, 0x1e, 0xa2, 0x3e, 0x5a, 0x13, 0x78, 0xbe, 0xa6, 0x7a, 0x0c, 0xbe, 0x11, 0xa2, 0xda, 0xbd, 0x7a, 0x0b, 0x81, 0xbd, 0x67, 0xf2, 0x8d, 0x3d, 0x2c, 0xad, 0xaa, 0x3e, 0x41, 0x27, 0xaf, 0xbe, 0xbe, 0xe5, 0x77, 0xbe, 0x7d, 0x69, 0x9c, 0x3e, 0xa3, 0x62, 0xae, 0xbe, 0xee, 0xfc, 0xc5, 0xbd, 0x3e, 0x5b, 0x5f, 0x3e, 0x07, 0x85, 0xc4, 0x3e, 0x8c, 0xb7, 0xaa, 0x3d, 0xe3, 0xd2, 0x8e, 0x3e, 0x66, 0x57, 0x86, 0x3d, 0x14, 0xb0, 0x6e, 0xbe, 0x35, 0x7a, 0xa8, 0x3c, 0xbe, 0x18, 0xe6, 0xbd, 0xd3, 0xbf, 0x38, 0x3e, 0x32, 0x2d, 0x3b, 0x3e, 0xd6, 0x1f, 0x01, 0x3e, 0x79, 0x51, 0x45, 0xbe, 0xca, 0xa5, 0x3b, 0xbe, 0xab, 0x99, 0x5c, 0xbe, 0xc7, 0x8e, 0x56, 0xbe, 0x55, 0x50, 0x37, 0xbe, 0x83, 0x38, 0x97, 0xbe, 0x6f, 0xda, 0x4a, 0x3e, 0x97, 0x95, 0xfd, 0xbe, 0x60, 0x17, 0x5d, 0xbe, 0x75, 0x22, 0xb8, 0xbe, 0xe3, 0x8f, 0xb4, 0xbd, 0xcc, 0x90, 0x7c, 0x3d, 0x8a, 0x60, 0xad, 0x3e, 0x45, 0x2c, 0x5e, 0x3e, 0xa9, 0x0f, 0x28, 0xbe, 0xe8, 0x80, 0x60, 0x3e, 0x0a, 0x3f, 0x8a, 0xbe, 0x93, 0xd4, 0x9c, 0x3e, 0xd7, 0xe2, 0xf6, 0xbd, 0xa5, 0xce, 0x7f, 0x3d, 0xd0, 0x40, 0xda, 0x3d, 0xc9, 0xec, 0x27, 0xbb, 0x03, 0x1e, 0xf3, 0xbe, 0x63, 0x7b, 0x13, 0xbc, 0x89, 0xb9, 0x67, 0x3a, 0xa7, 0x68, 0x9b, 0x3e, 0xbd, 0x6b, 0xa1, 0xbc, 0x64, 0x63, 0xc1, 0x3e, 0x4a, 0xa5, 0x5d, 0xbe, 0xcf, 0xf7, 0xc6, 0xbb, 0xc4, 0x3f, 0xc3, 0x3c, 0x28, 0x98, 0x18, 0xbc, 0x64, 0x8e, 0xb7, 0xbe, 0x61, 0x49, 0x8c, 0x3e, 0xfc, 0x9b, 0xcd, 0xbd, 0x35, 0x3b, 0x1a, 0x3f, 0xb5, 0x17, 0xf7, 0x3d, 0x71, 0xff, 0x38, 0x3f, 0x69, 0x01, 0x9e, 0x3e, 0x29, 0x24, 0x13, 0x3e, 0x2c, 0x6f, 0x92, 0xbe, 0x42, 0xea, 0xb4, 0xbd, 0xbd, 0x27, 0x45, 0x3b, 0x3d, 0xb9, 0x81, 0xbe, 0x9c, 0xd6, 0xbc, 0xbd, 0xaa, 0xe3, 0x4c, 0x3b, 0xc2, 0xe1, 0x7a, 0x3e, 0x7d, 0x21, 0x9d, 0xbd, 0x4b, 0xcb, 0x21, 0xbe, 0xa9, 0xac, 0x80, 0xbe, 0xd5, 0xce, 0x50, 0x3e, 0x4e, 0xe0, 0xb2, 0x3e, 0xb3, 0x95, 0x76, 0xbe, 0x41, 0xf3, 0x0f, 0x3d, 0x09, 0x21, 0x66, 0x3e, 0x71, 0xf0, 0x99, 0xbe, 0x50, 0xd8, 0x4b, 0xbe, 0x07, 0xeb, 0xdd, 0xbc, 0x17, 0xbd, 0x68, 0xbd, 0x61, 0x75, 0xcb, 0x3e, 0xa7, 0x3e, 0x30, 0xbe, 0xa7, 0x16, 0xe7, 0xbc, 0xef, 0xb8, 0xaa, 0x3e, 0x8d, 0xcc, 0x88, 0xbe, 0xc4, 0x7b, 0x54, 0xbd, 0xda, 0x2a, 0x97, 0xbe, 0xf3, 0x31, 0x21, 0x3e, 0x29, 0x25, 0xb3, 0xbe, 0xd4, 0x96, 0x90, 0xbe, 0xd6, 0x16, 0x08, 0x3d, 0xa2, 0x11, 0x82, 0xbd, 0x38, 0x40, 0x82, 0x3e, 0xa3, 0xca, 0x3d, 0xbe, 0xf7, 0x2a, 0x74, 0xbd, 0xaf, 0x94, 0xa7, 0x3d, 0x53, 0x1d, 0xfa, 0x3d, 0xc2, 0x6f, 0xa6, 0xbe, 0xe6, 0x06, 0xa6, 0xbe, 0xaf, 0x9c, 0xa1, 0xbd, 0xd2, 0x46, 0xf7, 0xbe, 0x3f, 0x8e, 0x9f, 0xbe, 0x39, 0xa3, 0xa3, 0x3e, 0x57, 0x88, 0x91, 0xbe, 0x8e, 0x1d, 0x92, 0x3b, 0x51, 0xdc, 0xe1, 0x3b, 0x71, 0x69, 0x71, 0x3e, 0x00, 0xab, 0x00, 0xbc, 0x1c, 0xd1, 0x5b, 0x3e, 0x5d, 0x1d, 0x8f, 0x3d, 0x00, 0x03, 0x1f, 0x3e, 0x9a, 0x5c, 0x68, 0x3e, 0x60, 0xf1, 0xa5, 0x3e, 0x85, 0x4a, 0x2f, 0xbe, 0x46, 0xf9, 0xfc, 0xbd, 0x01, 0x8f, 0xe7, 0x3b, 0x22, 0x12, 0x0d, 0x3d, 0xf1, 0x29, 0x5d, 0x3e, 0x20, 0x3e, 0xb3, 0xbe, 0xf8, 0x1f, 0x9f, 0x3e, 0x1c, 0x66, 0x68, 0xbe, 0x1e, 0x27, 0xb8, 0x3d, 0x36, 0x6b, 0x3e, 0x3e, 0x64, 0x63, 0xec, 0xbc, 0x82, 0xfd, 0xb4, 0x3e, 0x90, 0xa6, 0xd6, 0x3e, 0x9d, 0x45, 0x05, 0x3f, 0xd7, 0xe2, 0x0d, 0x3e, 0x7a, 0xc2, 0x19, 0x3e, 0x33, 0x86, 0x53, 0x3d, 0xae, 0xe5, 0x95, 0xbe, 0xa4, 0x4f, 0xae, 0x3d, 0x5c, 0x2f, 0xa1, 0x3e, 0xcc, 0x7d, 0x9f, 0xbe, 0xb5, 0x40, 0x0e, 0x3e, 0x90, 0x92, 0x8c, 0x3e, 0xcb, 0x42, 0xb9, 0xbc, 0xe0, 0x65, 0x7e, 0x3d, 0x25, 0x9d, 0x42, 0x3e, 0xb4, 0x99, 0xa7, 0x3e, 0x50, 0x32, 0x4e, 0x3d, 0x3e, 0x84, 0x9b, 0x3e, 0xe1, 0xaa, 0x19, 0xbe, 0x56, 0xda, 0x3f, 0xbd, 0xfa, 0x75, 0x17, 0x3e, 0xfe, 0x9f, 0xf9, 0x3d, 0x23, 0x94, 0xa0, 0x3d, 0x7e, 0x64, 0x81, 0xbe, 0xf5, 0xa7, 0x98, 0xbd, 0x9f, 0x6a, 0x54, 0xbd, 0x47, 0x43, 0xc4, 0x3d, 0xbc, 0x5b, 0x7f, 0x3e, 0xe4, 0xae, 0x6d, 0x3e, 0xa2, 0x79, 0x93, 0x3e, 0x39, 0x03, 0xf7, 0x3d, 0xef, 0xf5, 0xa8, 0xbe, 0x82, 0xf4, 0x46, 0x3e, 0xd9, 0x0c, 0x12, 0x3e, 0x13, 0xa9, 0x32, 0x3e, 0x30, 0x4d, 0x73, 0xbe, 0x66, 0xe3, 0xae, 0x3c, 0x11, 0xc5, 0x20, 0x3e, 0xe7, 0xe6, 0xae, 0x3d, 0x91, 0x59, 0x6f, 0x3e, 0x5c, 0xa9, 0x92, 0x3e, 0x32, 0xe0, 0x8a, 0xbe, 0x3a, 0x71, 0x2f, 0x3e, 0x0a, 0xf7, 0xff, 0xff, 0x04, 0x00, 0x00, 0x00, 0x80, 0x00, 0x00, 0x00, 0xa1, 0x84, 0xed, 0x3c, 0x16, 0x78, 0x2b, 0x3e, 0x88, 0xbc, 0x1c, 0xbe, 0x48, 0x7f, 0x16, 0x3e, 0x36, 0x26, 0x80, 0xbc, 0x47, 0x60, 0xdb, 0xbc, 0x25, 0xf3, 0x8d, 0xbc, 0x20, 0x0e, 0x3e, 0xbe, 0x07, 0xd6, 0xef, 0xbd, 0x30, 0xd2, 0x6d, 0xbc, 0xcb, 0x84, 0x88, 0x3e, 0x80, 0x45, 0x58, 0x3c, 0x2c, 0x7a, 0x26, 0xbe, 0xec, 0x6f, 0x22, 0xbd, 0xc8, 0xbd, 0x00, 0x3e, 0x97, 0xce, 0x2a, 0xbd, 0x45, 0xf2, 0xb8, 0x3d, 0x2d, 0x09, 0x30, 0x3e, 0x50, 0x5f, 0x3e, 0x3d, 0x0f, 0xaa, 0x35, 0xbb, 0xb6, 0xb8, 0x4c, 0x3d, 0x8c, 0x48, 0x26, 0x3e, 0x27, 0x58, 0xf0, 0x3d, 0x84, 0x13, 0xa5, 0x3d, 0xe5, 0x11, 0x2b, 0xbd, 0x98, 0xe1, 0x23, 0xbe, 0x08, 0x19, 0xcf, 0x3d, 0x50, 0x28, 0x28, 0xbd, 0x9a, 0x4a, 0x4f, 0x3d, 0xb7, 0x3f, 0xc4, 0x3a, 0x11, 0x61, 0xfa, 0x3c, 0x11, 0xc5, 0xb9, 0xbc, 0x96, 0xf7, 0xff, 0xff, 0x04, 0x00, 0x00, 0x00, 0x40, 0x00, 0x00, 0x00, 0xd7, 0xaa, 0x22, 0x3e, 0xb4, 0xf9, 0x19, 0x3e, 0x2a, 0x26, 0x22, 0x3e, 0x69, 0x1f, 0x21, 0x3e, 0xf4, 0x00, 0x20, 0xbd, 0xfa, 0x7d, 0x15, 0x3c, 0xc0, 0x00, 0x23, 0x3e, 0xd8, 0x13, 0x26, 0xbe, 0xab, 0x80, 0x21, 0xbc, 0x90, 0x7e, 0x29, 0xbe, 0x9d, 0x5a, 0x1d, 0x3e, 0x48, 0xdd, 0x1c, 0xbc, 0x21, 0x9e, 0xd7, 0xbc, 0xab, 0x7e, 0x36, 0x3e, 0xaf, 0x90, 0x24, 0xbe, 0x26, 0xa2, 0x21, 0x3e, 0xe2, 0xf7, 0xff, 0xff, 0x04, 0x00, 0x00, 0x00, 0x04, 0x00, 0x00, 0x00, 0x6a, 0x92, 0x25, 0xbe, 0xf2, 0xf7, 0xff, 0xff, 0x04, 0x00, 0x00, 0x00, 0x00, 0x08, 0x00, 0x00, 0x8c, 0x06, 0x00, 0x3e, 0x61, 0x9f, 0x68, 0x3e, 0xd0, 0x07, 0x5e, 0xbe, 0x76, 0x4c, 0x13, 0x3e, 0xbb, 0x2e, 0xa8, 0x3d, 0x11, 0xfe, 0x80, 0x3c, 0xb9, 0xe0, 0xee, 0x3d, 0x79, 0x0b, 0xb4, 0x3e, 0xc8, 0xdf, 0x18, 0xbe, 0x7d, 0x81, 0x2f, 0xbe, 0xed, 0x0c, 0x94, 0x3e, 0x72, 0xef, 0x51, 0xbd, 0x9a, 0x75, 0x5c, 0x3d, 0x0c, 0x22, 0x7b, 0x3e, 0x8a, 0xd1, 0x7e, 0x3e, 0x2f, 0x08, 0x9b, 0xbe, 0x1d, 0x84, 0xdb, 0x3b, 0xe7, 0xf2, 0xce, 0x3b, 0xd5, 0x78, 0x00, 0x3d, 0x2c, 0xa0, 0xa7, 0x3e, 0x93, 0xa2, 0x2d, 0x3e, 0xd5, 0xad, 0x4e, 0xbe, 0xd1, 0x4e, 0xf5, 0x3d, 0x98, 0xc8, 0xe1, 0x3e, 0x84, 0xbf, 0x5e, 0x3c, 0xe0, 0x39, 0x16, 0x3e, 0x43, 0xb4, 0x35, 0x3e, 0xb7, 0x39, 0x42, 0xbe, 0xa3, 0x04, 0x34, 0x3e, 0x94, 0xd0, 0x34, 0x3c, 0x28, 0x5f, 0xa9, 0x3e, 0x45, 0xb3, 0xa1, 0x3e, 0x77, 0xf7, 0x53, 0x3e, 0xba, 0x57, 0xa8, 0x3d, 0x8c, 0xee, 0x7e, 0x3e, 0x9b, 0xe0, 0x11, 0xbe, 0x33, 0x92, 0x34, 0xbe, 0x10, 0xf5, 0x26, 0xbd, 0xcd, 0x42, 0xc9, 0xbd, 0xd5, 0x35, 0xd0, 0xbd, 0xf3, 0xf0, 0x12, 0xbd, 0x20, 0xe2, 0x1a, 0xbd, 0xeb, 0x72, 0x1a, 0x3e, 0x65, 0x3c, 0x54, 0xbd, 0xe1, 0x4a, 0xe6, 0xbd, 0xf5, 0x35, 0x14, 0xbe, 0x0f, 0x3a, 0xd7, 0x3c, 0xd7, 0xc6, 0x93, 0x3c, 0xd2, 0xc0, 0x4b, 0x3d, 0x8d, 0xd0, 0x53, 0xbe, 0xbd, 0x7a, 0x92, 0xbe, 0x61, 0xbe, 0xfd, 0x3c, 0xee, 0x25, 0xec, 0xbd, 0xbf, 0xef, 0x4a, 0x3e, 0x81, 0x09, 0x16, 0x3e, 0x20, 0x41, 0xfe, 0x3e, 0xba, 0x11, 0xf2, 0xbd, 0x23, 0x6f, 0x00, 0xbe, 0x20, 0x20, 0x93, 0xbe, 0x67, 0xc3, 0x54, 0xbe, 0x3b, 0x24, 0xbc, 0xbd, 0x36, 0x56, 0x19, 0x3e, 0xd1, 0xe6, 0x8d, 0x3e, 0xac, 0x65, 0x35, 0xbe, 0x5d, 0x2f, 0xfb, 0x3b, 0xf7, 0x8e, 0x88, 0x3c, 0x63, 0x69, 0x09, 0xbe, 0x9c, 0xa9, 0xfa, 0x3d, 0x9e, 0x5c, 0xdc, 0x3d, 0x23, 0xf6, 0x42, 0xbd, 0x57, 0xb2, 0x2a, 0xbe, 0x95, 0x12, 0x47, 0x3e, 0xb2, 0x43, 0x86, 0x3e, 0x11, 0x84, 0xb8, 0x3e, 0xb9, 0xe6, 0xcc, 0x3d, 0x28, 0xba, 0x20, 0x3e, 0x2e, 0x44, 0x4d, 0x3e, 0xcd, 0xde, 0x29, 0xbe, 0x30, 0x06, 0xf3, 0xbc, 0x97, 0x45, 0xe5, 0x3d, 0x41, 0x40, 0xb0, 0x3e, 0x6c, 0xee, 0x13, 0xbd, 0x3e, 0xc0, 0xb7, 0x3e, 0xff, 0xa5, 0xca, 0x3a, 0xa8, 0xec, 0x48, 0xbc, 0xa3, 0xe1, 0xae, 0x3e, 0xa6, 0xc4, 0x35, 0x3e, 0xc4, 0x98, 0xf7, 0x3d, 0x43, 0x0d, 0x98, 0x3e, 0xf5, 0xf6, 0xc1, 0xbd, 0x0d, 0x0d, 0xe7, 0x3d, 0xf0, 0x60, 0x95, 0xbe, 0xde, 0xa4, 0x83, 0x3e, 0x31, 0x54, 0x14, 0x3d, 0x8e, 0x5d, 0x8f, 0x3d, 0x9e, 0x6a, 0xd8, 0xbc, 0x41, 0x15, 0x2a, 0x3e, 0xa8, 0xb0, 0xaf, 0xbe, 0x2d, 0x14, 0x75, 0x3e, 0xa4, 0xb3, 0x9d, 0xbe, 0x46, 0x88, 0xfa, 0x3d, 0x21, 0xa8, 0x2f, 0x3e, 0x8d, 0x17, 0x87, 0xbe, 0xc5, 0xb8, 0x7f, 0x3e, 0x8c, 0x08, 0x80, 0x3e, 0xd5, 0xba, 0x8d, 0x3e, 0xef, 0x89, 0x0f, 0x3f, 0x4e, 0xfd, 0xb9, 0x3c, 0x38, 0xd5, 0x9e, 0x3e, 0xbb, 0xbf, 0xc5, 0x3e, 0x95, 0x4a, 0xaa, 0x3e, 0xff, 0xe1, 0xa9, 0x3e, 0xe3, 0x20, 0x81, 0x3e, 0xd3, 0xf4, 0x7e, 0x3e, 0x53, 0x79, 0xfd, 0xbd, 0x68, 0x2d, 0x89, 0xbe, 0x25, 0x5e, 0x93, 0x3e, 0x10, 0xed, 0xb0, 0xbe, 0xd5, 0xc8, 0x92, 0x3e, 0x04, 0x78, 0xfa, 0x3e, 0x15, 0x09, 0x2a, 0x3e, 0x30, 0x17, 0x57, 0xbb, 0xd3, 0x88, 0x16, 0xbd, 0x8c, 0x75, 0x99, 0xbe, 0xf0, 0x2e, 0x22, 0x3c, 0x32, 0x0b, 0x45, 0xbe, 0x67, 0x8b, 0xde, 0x3d, 0x8a, 0x84, 0x19, 0xbe, 0x98, 0xeb, 0x74, 0x3e, 0x83, 0x61, 0x66, 0xbd, 0x7e, 0x1f, 0x8d, 0x3c, 0x0e, 0xd6, 0x9c, 0xbd, 0x98, 0xc2, 0xc7, 0x3d, 0x97, 0x89, 0xd4, 0xbd, 0xf2, 0xb8, 0x36, 0x3e, 0xc8, 0x2c, 0x5b, 0xbe, 0x23, 0xc5, 0x79, 0xbe, 0x56, 0x72, 0x62, 0xbe, 0xd7, 0xde, 0xe3, 0x3d, 0x18, 0xaf, 0x8d, 0x3e, 0x6c, 0xbc, 0x14, 0x3e, 0x05, 0x7e, 0x58, 0xbe, 0x96, 0x69, 0xae, 0xbe, 0xd8, 0x6d, 0x9f, 0xbe, 0x54, 0xde, 0x10, 0x3e, 0x6b, 0x96, 0x27, 0xbe, 0xb8, 0x46, 0xbb, 0xbd, 0x7a, 0x42, 0x4e, 0xbe, 0x0d, 0xf1, 0x9f, 0xbe, 0x3e, 0xe1, 0x72, 0xbd, 0xa1, 0x85, 0x1d, 0xbe, 0x67, 0x3f, 0x36, 0xbe, 0x25, 0x7a, 0x42, 0x3e, 0x48, 0x09, 0x89, 0x3e, 0x37, 0x3a, 0x4f, 0xbe, 0xb8, 0x06, 0xea, 0x3d, 0xfc, 0x93, 0x96, 0xbe, 0xeb, 0x88, 0x92, 0x3e, 0xd0, 0xb9, 0x21, 0xbd, 0x82, 0x0a, 0x34, 0x3e, 0x2b, 0xc7, 0x57, 0x3d, 0x38, 0xa7, 0x96, 0xbe, 0xfe, 0x2a, 0x36, 0x3e, 0xb7, 0x4d, 0x61, 0x3e, 0xa4, 0x46, 0x84, 0x3d, 0xd5, 0x35, 0xdc, 0x3d, 0xdb, 0xff, 0xa1, 0x3d, 0x1c, 0x91, 0xb7, 0x3e, 0x62, 0x94, 0x25, 0x3e, 0x9a, 0x8d, 0x2f, 0xbd, 0xe6, 0x6f, 0x7f, 0xbb, 0xd5, 0xad, 0xab, 0xbd, 0xf6, 0x9f, 0x66, 0xbe, 0x47, 0xaf, 0xc8, 0xbd, 0x41, 0x39, 0xb3, 0xbe, 0x04, 0xa6, 0x59, 0xbe, 0xfb, 0x22, 0x76, 0x3c, 0xaa, 0xbe, 0x8d, 0xbe, 0x0d, 0x61, 0xe3, 0xbd, 0x58, 0x72, 0xb2, 0x3d, 0xf1, 0x8b, 0x19, 0x3e, 0x2a, 0x20, 0xe9, 0xbd, 0x77, 0x41, 0x96, 0xbe, 0x51, 0x65, 0xbe, 0x3d, 0x8a, 0xce, 0x1d, 0x3e, 0x3d, 0x04, 0xb2, 0xbe, 0xb6, 0xa8, 0x48, 0xbe, 0x72, 0x9d, 0x6f, 0xbe, 0x8e, 0xfc, 0x8e, 0xbe, 0xdb, 0xe9, 0xa1, 0x3e, 0xdc, 0x42, 0x06, 0xbe, 0x90, 0xa6, 0x07, 0x3e, 0x34, 0x12, 0xf4, 0x3c, 0xa2, 0x51, 0xdf, 0xbd, 0xea, 0xe1, 0xb0, 0xbc, 0x0c, 0xe0, 0xbc, 0x3e, 0x1a, 0x7b, 0x80, 0x3e, 0x74, 0xd4, 0x99, 0x3e, 0x04, 0x81, 0xce, 0x3d, 0x8c, 0xe2, 0xe7, 0xbd, 0x4d, 0x5d, 0x39, 0x3e, 0x0a, 0x38, 0xb4, 0x3d, 0x15, 0xb3, 0xed, 0x3d, 0x10, 0xba, 0x02, 0xbe, 0x38, 0xbf, 0x20, 0xbe, 0x0d, 0x85, 0x8a, 0xbe, 0xd0, 0x47, 0xa2, 0xbe, 0x29, 0xa0, 0x85, 0x3e, 0xdf, 0xd3, 0xa9, 0x3e, 0x25, 0xcc, 0xdd, 0x3d, 0xe2, 0x00, 0x8f, 0x3c, 0xa4, 0x75, 0x3a, 0xbe, 0x3a, 0x88, 0x5b, 0x3e, 0xad, 0x4b, 0x8a, 0x3e, 0xbe, 0xce, 0x4f, 0x3e, 0x2b, 0xcd, 0xbb, 0x3e, 0x49, 0xd4, 0x03, 0x3d, 0x1d, 0x49, 0xcd, 0x3c, 0xec, 0x4c, 0x19, 0x3e, 0x81, 0xcf, 0x93, 0xbe, 0x00, 0x3c, 0xfd, 0x3c, 0x56, 0x1f, 0x91, 0xbd, 0x43, 0xd1, 0x52, 0x3e, 0xcb, 0xaf, 0xaa, 0x3c, 0x7a, 0x00, 0xa3, 0x3e, 0xae, 0xc7, 0x94, 0xbe, 0x8e, 0x4a, 0x7d, 0x3e, 0x86, 0xb2, 0xfd, 0xbb, 0x3b, 0x7a, 0x59, 0x3d, 0x29, 0x5e, 0x8a, 0x3e, 0xd8, 0xf5, 0x92, 0x3e, 0x54, 0xfe, 0xaa, 0x3e, 0xae, 0xde, 0x65, 0x3e, 0xd3, 0xc7, 0x97, 0x3e, 0x58, 0xdd, 0x94, 0xbe, 0x47, 0xe4, 0xd8, 0x3d, 0x9c, 0x2a, 0x85, 0x3e, 0x5c, 0x28, 0x7e, 0x3e, 0x96, 0xc1, 0x91, 0xbe, 0x8f, 0x09, 0x0f, 0x3e, 0x5d, 0x36, 0x88, 0x3e, 0xde, 0x11, 0x09, 0xbe, 0x92, 0x44, 0x54, 0x3e, 0x1c, 0x4c, 0x90, 0xbc, 0x22, 0x8e, 0x72, 0xbe, 0xfc, 0x0d, 0xf8, 0xbd, 0x6d, 0x4b, 0xad, 0x3e, 0x0c, 0x6e, 0xc9, 0x3d, 0xd5, 0x64, 0xf3, 0xbd, 0xd1, 0x69, 0x41, 0x3e, 0x4e, 0x6f, 0xde, 0xbd, 0x3c, 0x85, 0x16, 0x3c, 0x09, 0x22, 0x95, 0xbe, 0x09, 0x79, 0x92, 0x3d, 0x7f, 0x66, 0x9b, 0x3d, 0xe4, 0x66, 0x67, 0xbe, 0x94, 0x1b, 0x20, 0x3e, 0x3d, 0x55, 0x23, 0xbd, 0x8c, 0xe6, 0x6d, 0xbe, 0xcb, 0xa6, 0x35, 0x3d, 0xcf, 0xf4, 0x32, 0xbe, 0xeb, 0x10, 0x9c, 0x3d, 0x2a, 0x0c, 0x85, 0xbe, 0x3c, 0xbc, 0x4d, 0xbd, 0xf8, 0x6a, 0xf2, 0xbd, 0x15, 0xf2, 0xb6, 0xbe, 0xaf, 0x02, 0x34, 0x3b, 0xe3, 0x90, 0x53, 0xbd, 0x64, 0xca, 0x6c, 0xbe, 0x4a, 0x22, 0x4a, 0x3e, 0xd8, 0x7a, 0xab, 0xbe, 0x00, 0x9e, 0x4e, 0x3c, 0x0c, 0xe4, 0x1d, 0x3d, 0x1e, 0xae, 0x85, 0xbe, 0x15, 0x57, 0x5b, 0x3e, 0x57, 0xb9, 0x56, 0x3e, 0xf1, 0x1e, 0xb8, 0xbe, 0x3a, 0xd7, 0x93, 0xbe, 0x03, 0x72, 0xf8, 0xbc, 0x29, 0x3a, 0x0b, 0x3e, 0x27, 0x70, 0xba, 0xbd, 0xb9, 0x52, 0x32, 0xbd, 0x08, 0xa5, 0x37, 0x3e, 0xb5, 0xcb, 0xb2, 0x3e, 0x65, 0x81, 0xb2, 0x3d, 0x3f, 0x8c, 0x68, 0xbe, 0x59, 0xca, 0x89, 0xbe, 0xd7, 0xea, 0x23, 0x3d, 0xd7, 0x01, 0xa3, 0xbe, 0xa5, 0x14, 0x5b, 0x3e, 0x1b, 0x19, 0x99, 0x3d, 0x3c, 0x1f, 0x16, 0x3e, 0xb4, 0xea, 0xc3, 0xbe, 0x9b, 0x01, 0xd0, 0xbd, 0x1f, 0xfe, 0x92, 0xbe, 0xe8, 0xb1, 0x82, 0x3e, 0x4a, 0xa3, 0xa2, 0x3e, 0xc7, 0xef, 0x89, 0x3e, 0xfa, 0x52, 0x81, 0xbe, 0x1d, 0x76, 0x6e, 0x3c, 0x09, 0x01, 0xfc, 0x3d, 0xbb, 0x7c, 0xe4, 0xbd, 0x3f, 0x87, 0x83, 0x3e, 0x30, 0xb3, 0x70, 0x3e, 0x82, 0xcd, 0xeb, 0x3d, 0xb9, 0xc7, 0x54, 0xbe, 0x2b, 0xe4, 0x12, 0x3e, 0xe6, 0x34, 0xdf, 0x3d, 0x52, 0xcb, 0x37, 0x3e, 0x1c, 0x2c, 0x65, 0x3e, 0xff, 0x3d, 0x9f, 0x3d, 0x17, 0xc6, 0x5f, 0xbe, 0x55, 0x1b, 0x2e, 0x3e, 0x79, 0xb1, 0xa8, 0x3e, 0x04, 0x5f, 0x24, 0x3e, 0x81, 0x3d, 0xab, 0x3d, 0xdc, 0x9a, 0x00, 0x3d, 0x6b, 0xd8, 0x54, 0xbe, 0xab, 0x29, 0x18, 0x3e, 0x29, 0x54, 0x9e, 0xbd, 0xca, 0x4f, 0xbd, 0x3e, 0xf7, 0x4c, 0x24, 0x3e, 0x58, 0x52, 0x05, 0xbc, 0xc6, 0x5b, 0x7a, 0xbe, 0xd1, 0x49, 0xaf, 0xbd, 0xf7, 0xe5, 0x88, 0x3e, 0xbc, 0x32, 0xad, 0xbd, 0xcf, 0x9d, 0x82, 0xbd, 0x10, 0x04, 0x5f, 0x3d, 0x80, 0xba, 0xc2, 0x3d, 0xe0, 0x83, 0xe9, 0x3e, 0x11, 0xea, 0xe8, 0xbe, 0x6f, 0x0d, 0x59, 0x3e, 0x58, 0xb1, 0x70, 0xbe, 0xbb, 0x59, 0x0c, 0xbe, 0xa5, 0x0d, 0x60, 0xbe, 0x49, 0xc2, 0x7f, 0xbe, 0xd8, 0xf3, 0x51, 0xbe, 0xd4, 0xcc, 0x9d, 0x3d, 0x68, 0x55, 0xa8, 0xbe, 0x08, 0xe4, 0x98, 0x3d, 0x5b, 0x9d, 0xa8, 0xbd, 0x7f, 0x9f, 0xe7, 0xbd, 0x67, 0x41, 0xf6, 0x3e, 0xdc, 0x02, 0x80, 0x3d, 0xa8, 0x1f, 0xf3, 0xbd, 0x14, 0xdf, 0x3f, 0x3e, 0xe8, 0xf4, 0x02, 0xbe, 0xec, 0x38, 0xb4, 0xbd, 0x80, 0x36, 0x53, 0xbd, 0x88, 0x15, 0x4a, 0xbd, 0x87, 0x37, 0x26, 0xbe, 0x5a, 0xbb, 0x5e, 0x3e, 0x46, 0x94, 0x91, 0xbe, 0x61, 0x03, 0x89, 0xbe, 0x29, 0xbd, 0xd9, 0x3d, 0x8f, 0xdd, 0x30, 0xbe, 0x50, 0x4d, 0x19, 0xbd, 0xbb, 0x46, 0x2b, 0xbe, 0xb9, 0x49, 0xa9, 0x3d, 0x24, 0x9f, 0x24, 0xbe, 0xb6, 0xc5, 0x6a, 0xbe, 0x90, 0x7e, 0x37, 0xbe, 0xb4, 0x7d, 0x11, 0xbe, 0xc2, 0x12, 0xa3, 0xbe, 0x15, 0x7d, 0x61, 0xbe, 0x65, 0xb1, 0x1f, 0x3e, 0x14, 0xf4, 0x72, 0x3e, 0x14, 0x6c, 0x97, 0xbe, 0x49, 0x8d, 0x5e, 0x3d, 0x20, 0x23, 0x64, 0xbe, 0xbd, 0x60, 0x94, 0xbd, 0x62, 0x6b, 0xc7, 0x3d, 0x53, 0xce, 0xd6, 0x3d, 0x4b, 0x30, 0xed, 0xbd, 0x9a, 0x30, 0x43, 0x3e, 0xc0, 0xe1, 0xe2, 0xbb, 0x5f, 0x39, 0x35, 0xbd, 0x20, 0x5e, 0x9e, 0xbe, 0x18, 0x2a, 0xf0, 0xbd, 0x38, 0x8f, 0xa9, 0xbe, 0xce, 0x38, 0x56, 0xbe, 0x5f, 0xa1, 0x4b, 0xbe, 0xf8, 0x85, 0xbb, 0x3d, 0x7c, 0x80, 0x96, 0x3e, 0xd3, 0xd0, 0xd4, 0xbd, 0x87, 0x36, 0x2a, 0xbd, 0x13, 0x75, 0x8c, 0x3e, 0xbc, 0xfa, 0x28, 0xbe, 0x9c, 0x75, 0xa8, 0xbe, 0xf1, 0x52, 0x46, 0xbe, 0x3a, 0xfb, 0x9a, 0xbe, 0x65, 0xc7, 0x6d, 0xbe, 0xa0, 0xf4, 0xaa, 0xbd, 0x52, 0x19, 0x7d, 0xbe, 0x8f, 0xd3, 0x9b, 0xbe, 0xaa, 0x66, 0xdb, 0x3d, 0x49, 0x52, 0x8a, 0xbd, 0x9d, 0xa9, 0x27, 0xbe, 0x94, 0x5f, 0x9a, 0xbd, 0x44, 0x32, 0x4e, 0xbe, 0xbf, 0x8d, 0x36, 0x3e, 0x84, 0x16, 0xad, 0xbe, 0x1b, 0xa9, 0x7f, 0x3e, 0x3c, 0x0f, 0xaa, 0x3e, 0xe1, 0xd6, 0xb7, 0xbe, 0xac, 0x04, 0x0b, 0xbe, 0xdd, 0x37, 0x35, 0x3e, 0x4c, 0x22, 0x40, 0x3e, 0xad, 0x74, 0xa2, 0xbd, 0x11, 0xd9, 0x96, 0x3e, 0x2e, 0x59, 0xfb, 0x3c, 0x98, 0xe2, 0x0d, 0x3d, 0xd4, 0xc4, 0xba, 0xbd, 0x49, 0x13, 0xad, 0xbe, 0xe2, 0xd4, 0x18, 0x3c, 0x63, 0xa4, 0x19, 0xbe, 0x8a, 0xf8, 0x19, 0x3e, 0xbd, 0x1a, 0x67, 0x3e, 0xf1, 0xea, 0x3c, 0x3e, 0x7c, 0xa0, 0x66, 0xbe, 0x1b, 0x6c, 0x1a, 0xbe, 0xe5, 0xbf, 0x7c, 0x3e, 0xf8, 0x6f, 0x11, 0xbe, 0x99, 0xaf, 0xe8, 0x3c, 0x67, 0xaf, 0x33, 0x3e, 0xbd, 0x9d, 0x42, 0x3e, 0xd5, 0x58, 0xa8, 0x3e, 0xfe, 0xa5, 0xec, 0xbd, 0x5a, 0xe8, 0x95, 0xbe, 0x61, 0x37, 0xb3, 0x3e, 0x3b, 0xa8, 0xac, 0x3d, 0xc5, 0xaf, 0x9a, 0xbd, 0x6b, 0xad, 0xa8, 0x3e, 0x3a, 0x40, 0xaf, 0x3e, 0xfb, 0x02, 0x2c, 0xbd, 0xb2, 0xe7, 0x96, 0xbd, 0x6c, 0xbb, 0xff, 0x3d, 0x87, 0x60, 0x81, 0x3d, 0x28, 0xc0, 0xad, 0x3e, 0xc6, 0xc3, 0x95, 0x3e, 0x02, 0x7a, 0x26, 0xbe, 0x2c, 0xed, 0x91, 0xbe, 0x99, 0x87, 0x22, 0xbe, 0x8a, 0x8e, 0x85, 0x3d, 0x4a, 0x69, 0x3e, 0x3e, 0xa7, 0x99, 0xd7, 0xbd, 0xf6, 0x55, 0x88, 0xbe, 0x02, 0xff, 0x2a, 0xbd, 0x5a, 0xb1, 0x1c, 0x3c, 0xbd, 0x98, 0x95, 0x3e, 0x01, 0xec, 0x3a, 0x3c, 0x73, 0xe9, 0xd0, 0xbd, 0x14, 0xf5, 0x55, 0xbb, 0x3f, 0xee, 0x67, 0x3e, 0xe2, 0x97, 0x5d, 0x3e, 0x27, 0x6d, 0xe7, 0xbd, 0x12, 0xfa, 0x66, 0xbd, 0x92, 0xd9, 0xf6, 0xbe, 0x3a, 0xe2, 0xd4, 0xbd, 0xa8, 0xbc, 0x9a, 0x3e, 0x2b, 0x0d, 0x5e, 0xbd, 0x02, 0xbb, 0x8e, 0xbc, 0x8e, 0x51, 0x8b, 0x3e, 0x2f, 0xbd, 0xbc, 0xbd, 0x9f, 0x1b, 0xbd, 0x3d, 0x7f, 0x5b, 0xaa, 0xbe, 0x1f, 0x53, 0x01, 0xbe, 0xf8, 0x46, 0x82, 0xbd, 0x4b, 0x4e, 0x31, 0x3e, 0x29, 0xac, 0x0d, 0x3e, 0x5c, 0x43, 0xe7, 0xbe, 0xa4, 0xb5, 0x80, 0x3e, 0x08, 0x47, 0x12, 0xbe, 0xb2, 0x57, 0x2a, 0xbd, 0x9a, 0x91, 0xeb, 0x3d, 0x64, 0xcc, 0xa3, 0xbe, 0x50, 0xbb, 0x85, 0x3e, 0x7e, 0x1b, 0x32, 0xbe, 0x08, 0x0e, 0x4f, 0x3e, 0xe2, 0xa7, 0xc9, 0x3c, 0x43, 0xcf, 0xf5, 0xbc, 0x23, 0x40, 0xe1, 0xbd, 0x76, 0x35, 0x6f, 0x3e, 0x9e, 0x9d, 0xfe, 0xbe, 0x2f, 0x95, 0x0c, 0x3e, 0x75, 0xea, 0xe6, 0x3d, 0xbf, 0x6c, 0x7b, 0x3c, 0x69, 0x66, 0x8a, 0xbe, 0xf1, 0x14, 0xfe, 0xbd, 0x0f, 0x1b, 0x81, 0x3e, 0x96, 0xf0, 0x08, 0x3e, 0x4a, 0x0d, 0x4f, 0xbe, 0x59, 0x64, 0xc2, 0x3e, 0xb8, 0x3d, 0xb9, 0xbe, 0x4f, 0x96, 0xbc, 0xbd, 0x3f, 0x67, 0x15, 0xbe, 0x6e, 0xac, 0x80, 0x3e, 0x5f, 0x0e, 0xf1, 0xbc, 0x63, 0xbb, 0x71, 0xbe, 0x8b, 0x7a, 0xdf, 0xbd, 0x77, 0x1b, 0x21, 0x3e, 0xe1, 0x14, 0x5d, 0x3e, 0xda, 0xe6, 0x0c, 0x3d, 0x8f, 0x7b, 0x90, 0xbe, 0x8a, 0x7c, 0xd8, 0x3c, 0xbc, 0x1d, 0xa6, 0x3e, 0x43, 0x26, 0xa1, 0x3d, 0x3f, 0x07, 0xc3, 0x3d, 0x86, 0x19, 0x9b, 0x3e, 0x27, 0x15, 0xd1, 0xbd, 0x44, 0xd0, 0x5a, 0x3e, 0x00, 0x00, 0x06, 0x00, 0x08, 0x00, 0x04, 0x00, 0x06, 0x00, 0x00, 0x00, 0x04, 0x00, 0x00, 0x00, 0x40, 0x00, 0x00, 0x00, 0xd9, 0x00, 0xd9, 0xbe, 0xf6, 0xbe, 0xae, 0xbe, 0x62, 0xa6, 0x4f, 0xbe, 0xea, 0x9e, 0x24, 0xbe, 0x99, 0xff, 0xf3, 0x3e, 0x79, 0xe1, 0x0a, 0xbf, 0xc9, 0xd5, 0xc0, 0xbe, 0x77, 0x24, 0xf5, 0x3e, 0x26, 0x9f, 0x09, 0x3f, 0xbf, 0x79, 0xa3, 0x3d, 0x05, 0x7c, 0xa1, 0xbe, 0xbd, 0xdb, 0xa6, 0x3e, 0x56, 0x44, 0xda, 0x3e, 0xc6, 0x0b, 0x23, 0xbf, 0x3d, 0x83, 0xad, 0x3e, 0xed, 0x46, 0xd7, 0xbe, 0x84, 0xfa, 0xff, 0xff, 0x88, 0xfa, 0xff, 0xff, 0x0f, 0x00, 0x00, 0x00, 0x4d, 0x4c, 0x49, 0x52, 0x20, 0x43, 0x6f, 0x6e, 0x76, 0x65, 0x72, 0x74, 0x65, 0x64, 0x2e, 0x00, 0x01, 0x00, 0x00, 0x00, 0x14, 0x00, 0x00, 0x00, 0x00, 0x00, 0x0e, 0x00, 0x18, 0x00, 0x14, 0x00, 0x10, 0x00, 0x0c, 0x00, 0x08, 0x00, 0x04, 0x00, 0x0e, 0x00, 0x00, 0x00, 0x14, 0x00, 0x00, 0x00, 0x1c, 0x00, 0x00, 0x00, 0x08, 0x01, 0x00, 0x00, 0x0c, 0x01, 0x00, 0x00, 0x10, 0x01, 0x00, 0x00, 0x04, 0x00, 0x00, 0x00, 0x6d, 0x61, 0x69, 0x6e, 0x00, 0x00, 0x00, 0x00, 0x04, 0x00, 0x00, 0x00, 0xb0, 0x00, 0x00, 0x00, 0x68, 0x00, 0x00, 0x00, 0x34, 0x00, 0x00, 0x00, 0x10, 0x00, 0x00, 0x00, 0x00, 0x00, 0x0a, 0x00, 0x10, 0x00, 0x0c, 0x00, 0x08, 0x00, 0x04, 0x00, 0x0a, 0x00, 0x00, 0x00, 0x0c, 0x00, 0x00, 0x00, 0x10, 0x00, 0x00, 0x00, 0x01, 0x00, 0x00, 0x00, 0x01, 0x00, 0x00, 0x00, 0x0a, 0x00, 0x00, 0x00, 0x01, 0x00, 0x00, 0x00, 0x09, 0x00, 0x00, 0x00, 0x9a, 0xff, 0xff, 0xff, 0x10, 0x00, 0x00, 0x00, 0x00, 0x00, 0x00, 0x08, 0x0c, 0x00, 0x00, 0x00, 0x10, 0x00, 0x00, 0x00, 0x30, 0xfb, 0xff, 0xff, 0x01, 0x00, 0x00, 0x00, 0x09, 0x00, 0x00, 0x00, 0x03, 0x00, 0x00, 0x00, 0x08, 0x00, 0x00, 0x00, 0x01, 0x00, 0x00, 0x00, 0x03, 0x00, 0x00, 0x00, 0xca, 0xff, 0xff, 0xff, 0x10, 0x00, 0x00, 0x00, 0x00, 0x00, 0x00, 0x08, 0x10, 0x00, 0x00, 0x00, 0x14, 0x00, 0x00, 0x00, 0xba, 0xff, 0xff, 0xff, 0x00, 0x00, 0x00, 0x01, 0x01, 0x00, 0x00, 0x00, 0x08, 0x00, 0x00, 0x00, 0x03, 0x00, 0x00, 0x00, 0x07, 0x00, 0x00, 0x00, 0x02, 0x00, 0x00, 0x00, 0x04, 0x00, 0x00, 0x00, 0x00, 0x00, 0x0e, 0x00, 0x16, 0x00, 0x00, 0x00, 0x10, 0x00, 0x0c, 0x00, 0x0b, 0x00, 0x04, 0x00, 0x0e, 0x00, 0x00, 0x00, 0x18, 0x00, 0x00, 0x00, 0x00, 0x00, 0x00, 0x08, 0x18, 0x00, 0x00, 0x00, 0x1c, 0x00, 0x00, 0x00, 0x00, 0x00, 0x06, 0x00, 0x08, 0x00, 0x07, 0x00, 0x06, 0x00, 0x00, 0x00, 0x00, 0x00, 0x00, 0x01, 0x01, 0x00, 0x00, 0x00, 0x07, 0x00, 0x00, 0x00, 0x03, 0x00, 0x00, 0x00, 0x00, 0x00, 0x00, 0x00, 0x06, 0x00, 0x00, 0x00, 0x05, 0x00, 0x00, 0x00, 0x01, 0x00, 0x00, 0x00, 0x0a, 0x00, 0x00, 0x00, 0x01, 0x00, 0x00, 0x00, 0x00, 0x00, 0x00, 0x00, 0x0b, 0x00, 0x00, 0x00, 0xf8, 0x03, 0x00, 0x00, 0xa0, 0x03, 0x00, 0x00, 0x48, 0x03, 0x00, 0x00, 0x0c, 0x03, 0x00, 0x00, 0xb0, 0x02, 0x00, 0x00, 0x58, 0x02, 0x00, 0x00, 0x0c, 0x02, 0x00, 0x00, 0x78, 0x01, 0x00, 0x00, 0xdc, 0x00, 0x00, 0x00, 0x60, 0x00, 0x00, 0x00, 0x04, 0x00, 0x00, 0x00, 0x4a, 0xfc, 0xff, 0xff, 0x00, 0x00, 0x00, 0x01, 0x14, 0x00, 0x00, 0x00, 0x1c, 0x00, 0x00, 0x00, 0x1c, 0x00, 0x00, 0x00, 0x0b, 0x00, 0x00, 0x00, 0x34, 0x00, 0x00, 0x00, 0x02, 0x00, 0x00, 0x00, 0xff, 0xff, 0xff, 0xff, 0x01, 0x00, 0x00, 0x00, 0x34, 0xfc, 0xff, 0xff, 0x1b, 0x00, 0x00, 0x00, 0x53, 0x74, 0x61, 0x74, 0x65, 0x66, 0x75, 0x6c, 0x50, 0x61, 0x72, 0x74, 0x69, 0x74, 0x69, 0x6f, 0x6e, 0x65, 0x64, 0x43, 0x61, 0x6c, 0x6c, 0x5f, 0x31, 0x3a, 0x30, 0x00, 0x02, 0x00, 0x00, 0x00, 0x01, 0x00, 0x00, 0x00, 0x01, 0x00, 0x00, 0x00, 0xa2, 0xfc, 0xff, 0xff, 0x00, 0x00, 0x00, 0x01, 0x14, 0x00, 0x00, 0x00, 0x1c, 0x00, 0x00, 0x00, 0x1c, 0x00, 0x00, 0x00, 0x0a, 0x00, 0x00, 0x00, 0x54, 0x00, 0x00, 0x00, 0x02, 0x00, 0x00, 0x00, 0xff, 0xff, 0xff, 0xff, 0x01, 0x00, 0x00, 0x00, 0x8c, 0xfc, 0xff, 0xff, 0x38, 0x00, 0x00, 0x00, 0x73, 0x65, 0x71, 0x75, 0x65, 0x6e, 0x74, 0x69, 0x61, 0x6c, 0x5f, 0x31, 0x2f, 0x64, 0x65, 0x6e, 0x73, 0x65, 0x5f, 0x32, 0x5f, 0x31, 0x2f, 0x4d, 0x61, 0x74, 0x4d, 0x75, 0x6c, 0x3b, 0x73, 0x65, 0x71, 0x75, 0x65, 0x6e, 0x74, 0x69, 0x61, 0x6c, 0x5f, 0x31, 0x2f, 0x64, 0x65, 0x6e, 0x73, 0x65, 0x5f, 0x32, 0x5f, 0x31, 0x2f, 0x41, 0x64, 0x64, 0x00, 0x00, 0x00, 0x00, 0x02, 0x00, 0x00, 0x00, 0x01, 0x00, 0x00, 0x00, 0x01, 0x00, 0x00, 0x00, 0x1a, 0xfd, 0xff, 0xff, 0x00, 0x00, 0x00, 0x01, 0x14, 0x00, 0x00, 0x00, 0x1c, 0x00, 0x00, 0x00, 0x1c, 0x00, 0x00, 0x00, 0x09, 0x00, 0x00, 0x00, 0x74, 0x00, 0x00, 0x00, 0x02, 0x00, 0x00, 0x00, 0xff, 0xff, 0xff, 0xff, 0x10, 0x00, 0x00, 0x00, 0x04, 0xfd, 0xff, 0xff, 0x58, 0x00, 0x00, 0x00, 0x73, 0x65, 0x71, 0x75, 0x65, 0x6e, 0x74, 0x69, 0x61, 0x6c, 0x5f, 0x31, 0x2f, 0x64, 0x65, 0x6e, 0x73, 0x65, 0x5f, 0x31, 0x5f, 0x32, 0x2f, 0x4d, 0x61, 0x74, 0x4d, 0x75, 0x6c, 0x3b, 0x73, 0x65, 0x71, 0x75, 0x65, 0x6e, 0x74, 0x69, 0x61, 0x6c, 0x5f, 0x31, 0x2f, 0x64, 0x65, 0x6e, 0x73, 0x65, 0x5f, 0x31, 0x5f, 0x32, 0x2f, 0x52, 0x65, 0x6c, 0x75, 0x3b, 0x73, 0x65, 0x71, 0x75, 0x65, 0x6e, 0x74, 0x69, 0x61, 0x6c, 0x5f, 0x31, 0x2f, 0x64, 0x65, 0x6e, 0x73, 0x65, 0x5f, 0x31, 0x5f, 0x32, 0x2f, 0x42, 0x69, 0x61, 0x73, 0x41, 0x64, 0x64, 0x00, 0x00, 0x00, 0x00, 0x02, 0x00, 0x00, 0x00, 0x01, 0x00, 0x00, 0x00, 0x10, 0x00, 0x00, 0x00, 0xb2, 0xfd, 0xff, 0xff, 0x00, 0x00, 0x00, 0x01, 0x14, 0x00, 0x00, 0x00, 0x1c, 0x00, 0x00, 0x00, 0x1c, 0x00, 0x00, 0x00, 0x08, 0x00, 0x00, 0x00, 0x6c, 0x00, 0x00, 0x00, 0x02, 0x00, 0x00, 0x00, 0xff, 0xff, 0xff, 0xff, 0x20, 0x00, 0x00, 0x00, 0x9c, 0xfd, 0xff, 0xff, 0x52, 0x00, 0x00, 0x00, 0x73, 0x65, 0x71, 0x75, 0x65, 0x6e, 0x74, 0x69, 0x61, 0x6c, 0x5f, 0x31, 0x2f, 0x64, 0x65, 0x6e, 0x73, 0x65, 0x5f, 0x31, 0x2f, 0x4d, 0x61, 0x74, 0x4d, 0x75, 0x6c, 0x3b, 0x73, 0x65, 0x71, 0x75, 0x65, 0x6e, 0x74, 0x69, 0x61, 0x6c, 0x5f, 0x31, 0x2f, 0x64, 0x65, 0x6e, 0x73, 0x65, 0x5f, 0x31, 0x2f, 0x52, 0x65, 0x6c, 0x75, 0x3b, 0x73, 0x65, 0x71, 0x75, 0x65, 0x6e, 0x74, 0x69, 0x61, 0x6c, 0x5f, 0x31, 0x2f, 0x64, 0x65, 0x6e, 0x73, 0x65, 0x5f, 0x31, 0x2f, 0x42, 0x69, 0x61, 0x73, 0x41, 0x64, 0x64, 0x00, 0x00, 0x02, 0x00, 0x00, 0x00, 0x01, 0x00, 0x00, 0x00, 0x20, 0x00, 0x00, 0x00, 0x96, 0xfe, 0xff, 0xff, 0x00, 0x00, 0x00, 0x01, 0x10, 0x00, 0x00, 0x00, 0x10, 0x00, 0x00, 0x00, 0x07, 0x00, 0x00, 0x00, 0x28, 0x00, 0x00, 0x00, 0x1c, 0xfe, 0xff, 0xff, 0x1b, 0x00, 0x00, 0x00, 0x73, 0x65, 0x71, 0x75, 0x65, 0x6e, 0x74, 0x69, 0x61, 0x6c, 0x5f, 0x31, 0x2f, 0x64, 0x65, 0x6e, 0x73, 0x65, 0x5f, 0x31, 0x2f, 0x4d, 0x61, 0x74, 0x4d, 0x75, 0x6c, 0x00, 0x02, 0x00, 0x00, 0x00, 0x20, 0x00, 0x00, 0x00, 0x0d, 0x00, 0x00, 0x00, 0xde, 0xfe, 0xff, 0xff, 0x00, 0x00, 0x00, 0x01, 0x10, 0x00, 0x00, 0x00, 0x10, 0x00, 0x00, 0x00, 0x06, 0x00, 0x00, 0x00, 0x38, 0x00, 0x00, 0x00, 0x64, 0xfe, 0xff, 0xff, 0x2b, 0x00, 0x00, 0x00, 0x73, 0x65, 0x71, 0x75, 0x65, 0x6e, 0x74, 0x69, 0x61, 0x6c, 0x5f, 0x31, 0x2f, 0x64, 0x65, 0x6e, 0x73, 0x65, 0x5f, 0x31, 0x2f, 0x42, 0x69, 0x61, 0x73, 0x41, 0x64, 0x64, 0x2f, 0x52, 0x65, 0x61, 0x64, 0x56, 0x61, 0x72, 0x69, 0x61, 0x62, 0x6c, 0x65, 0x4f, 0x70, 0x00, 0x01, 0x00, 0x00, 0x00, 0x20, 0x00, 0x00, 0x00, 0x32, 0xff, 0xff, 0xff, 0x00, 0x00, 0x00, 0x01, 0x10, 0x00, 0x00, 0x00, 0x10, 0x00, 0x00, 0x00, 0x05, 0x00, 0x00, 0x00, 0x3c, 0x00, 0x00, 0x00, 0xb8, 0xfe, 0xff, 0xff, 0x2d, 0x00, 0x00, 0x00, 0x73, 0x65, 0x71, 0x75, 0x65, 0x6e, 0x74, 0x69, 0x61, 0x6c, 0x5f, 0x31, 0x2f, 0x64, 0x65, 0x6e, 0x73, 0x65, 0x5f, 0x31, 0x5f, 0x32, 0x2f, 0x42, 0x69, 0x61, 0x73, 0x41, 0x64, 0x64, 0x2f, 0x52, 0x65, 0x61, 0x64, 0x56, 0x61, 0x72, 0x69, 0x61, 0x62, 0x6c, 0x65, 0x4f, 0x70, 0x00, 0x00, 0x00, 0x01, 0x00, 0x00, 0x00, 0x10, 0x00, 0x00, 0x00, 0x8a, 0xff, 0xff, 0xff, 0x00, 0x00, 0x00, 0x01, 0x10, 0x00, 0x00, 0x00, 0x10, 0x00, 0x00, 0x00, 0x04, 0x00, 0x00, 0x00, 0x1c, 0x00, 0x00, 0x00, 0x10, 0xff, 0xff, 0xff, 0x0f, 0x00, 0x00, 0x00, 0x61, 0x72, 0x69, 0x74, 0x68, 0x2e, 0x63, 0x6f, 0x6e, 0x73, 0x74, 0x61, 0x6e, 0x74, 0x32, 0x00, 0x01, 0x00, 0x00, 0x00, 0x01, 0x00, 0x00, 0x00, 0xc2, 0xff, 0xff, 0xff, 0x00, 0x00, 0x00, 0x01, 0x10, 0x00, 0x00, 0x00, 0x10, 0x00, 0x00, 0x00, 0x03, 0x00, 0x00, 0x00, 0x1c, 0x00, 0x00, 0x00, 0x48, 0xff, 0xff, 0xff, 0x0f, 0x00, 0x00, 0x00, 0x61, 0x72, 0x69, 0x74, 0x68, 0x2e, 0x63, 0x6f, 0x6e, 0x73, 0x74, 0x61, 0x6e, 0x74, 0x31, 0x00, 0x02, 0x00, 0x00, 0x00, 0x10, 0x00, 0x00, 0x00, 0x20, 0x00, 0x00, 0x00, 0x00, 0x00, 0x16, 0x00, 0x18, 0x00, 0x14, 0x00, 0x00, 0x00, 0x10, 0x00, 0x0c, 0x00, 0x08, 0x00, 0x00, 0x00, 0x00, 0x00, 0x00, 0x00, 0x07, 0x00, 0x16, 0x00, 0x00, 0x00, 0x00, 0x00, 0x00, 0x01, 0x10, 0x00, 0x00, 0x00, 0x10, 0x00, 0x00, 0x00, 0x02, 0x00, 0x00, 0x00, 0x1c, 0x00, 0x00, 0x00, 0x9c, 0xff, 0xff, 0xff, 0x0e, 0x00, 0x00, 0x00, 0x61, 0x72, 0x69, 0x74, 0x68, 0x2e, 0x63, 0x6f, 0x6e, 0x73, 0x74, 0x61, 0x6e, 0x74, 0x00, 0x00, 0x02, 0x00, 0x00, 0x00, 0x01, 0x00, 0x00, 0x00, 0x10, 0x00, 0x00, 0x00, 0x00, 0x00, 0x16, 0x00, 0x1c, 0x00, 0x18, 0x00, 0x00, 0x00, 0x14, 0x00, 0x10, 0x00, 0x0c, 0x00, 0x00, 0x00, 0x00, 0x00, 0x08, 0x00, 0x07, 0x00, 0x16, 0x00, 0x00, 0x00, 0x00, 0x00, 0x00, 0x01, 0x14, 0x00, 0x00, 0x00, 0x20, 0x00, 0x00, 0x00, 0x20, 0x00, 0x00, 0x00, 0x01, 0x00, 0x00, 0x00, 0x3c, 0x00, 0x00, 0x00, 0x02, 0x00, 0x00, 0x00, 0xff, 0xff, 0xff, 0xff, 0x0d, 0x00, 0x00, 0x00, 0x04, 0x00, 0x04, 0x00, 0x04, 0x00, 0x00, 0x00, 0x1d, 0x00, 0x00, 0x00, 0x73, 0x65, 0x72, 0x76, 0x69, 0x6e, 0x67, 0x5f, 0x64, 0x65, 0x66, 0x61, 0x75, 0x6c, 0x74, 0x5f, 0x69, 0x6e, 0x70, 0x75, 0x74, 0x5f, 0x6c, 0x61, 0x79, 0x65, 0x72, 0x3a, 0x30, 0x00, 0x00, 0x00, 0x02, 0x00, 0x00, 0x00, 0x01, 0x00, 0x00, 0x00, 0x0d, 0x00, 0x00, 0x00, 0x02, 0x00, 0x00, 0x00, 0x20, 0x00, 0x00, 0x00, 0x04, 0x00, 0x00, 0x00, 0xf4, 0xff, 0xff, 0xff, 0x0e, 0x00, 0x00, 0x00, 0x00, 0x00, 0x00, 0x0e, 0x0c, 0x00, 0x0c, 0x00, 0x0b, 0x00, 0x00, 0x00, 0x00, 0x00, 0x04, 0x00, 0x0c, 0x00, 0x00, 0x00, 0x09, 0x00, 0x00, 0x00, 0x00, 0x00, 0x00, 0x09 
};

unsigned int g_model_len = sizeof(g_model);
